{
  "version": "1.0",
  "truncation": null,
  "padding": null,
  "added_tokens": [
    {
      "id": 0,
      "content": "<pad>",
      "single_word": false,
      "lstrip": false,
      "rstrip": false,
      "normalized": false,
      "special": true
    },
    {
      "id": 1,
      "content": "<unk>",
      "single_word": false,
      "lstrip": false,
      "rstrip": false,
      "normalized": false,
      "special": true
    },
    {
      "id": 2,
      "content": "<bos>",
      "single_word": false,
      "lstrip": false,
      "rstrip": false,
      "normalized": false,
      "special": true
    },
    {
      "id": 3,
      "content": "<eos>",
      "single_word": false,
      "lstrip": false,
      "rstrip": false,
      "normalized": false,
      "special": true
    }
  ],
  "normalizer": null,
  "pre_tokenizer": {
    "type": "Whitespace"
  },
  "post_processor": {
    "type": "TemplateProcessing",
    "single": [
      {
        "SpecialToken": {
          "id": "<bos>",
          "type_id": 0
        }
      },
      {
        "Sequence": {
          "id": "A",
          "type_id": 0
        }
      },
      {
        "SpecialToken": {
          "id": "<eos>",
          "type_id": 0
        }
      }
    ],
    "pair": [
      {
        "Sequence": {
          "id": "A",
          "type_id": 0
        }
      },
      {
        "Sequence": {
          "id": "B",
          "type_id": 1
        }
      }
    ],
    "special_tokens": {
      "<bos>": {
        "id": "<bos>",
        "ids": [
          2
        ],
        "tokens": [
          "<bos>"
        ]
      },
      "<eos>": {
        "id": "<eos>",
        "ids": [
          3
        ],
        "tokens": [
          "<eos>"
        ]
      }
    }
  },
  "decoder": null,
  "model": {
    "type": "BPE",
    "dropout": null,
    "unk_token": "<unk>",
    "continuing_subword_prefix": "",
    "end_of_word_suffix": "",
    "fuse_unk": false,
    "byte_fallback": false,
    "ignore_merges": false,
    "vocab": {
      "<pad>": 0,
      "<unk>": 1,
      "<bos>": 2,
      "<eos>": 3,
      "'": 4,
      "(": 5,
      ")": 6,
      "+": 7,
      ",": 8,
      "-": 9,
      ".": 10,
      "/": 11,
      "0": 12,
      "1": 13,
      "2": 14,
      "3": 15,
      "4": 16,
      "5": 17,
      "6": 18,
      "8": 19,
      "=": 20,
      "A": 21,
      "C": 22,
      "D": 23,
      "E": 24,
      "G": 25,
      "H": 26,
      "I": 27,
      "N": 28,
      "O": 29,
      "R": 30,
      "S": 31,
      "T": 32,
      "U": 33,
      "W": 34,
      "a": 35,
      "b": 36,
      "c": 37,
      "d": 38,
      "e": 39,
      "f": 40,
      "g": 41,
      "h": 42,
      "i": 43,
      "k": 44,
      "l": 45,
      "m": 46,
      "n": 47,
      "o": 48,
      "p": 49,
      "r": 50,
      "s": 51,
      "t": 52,
      "u": 53,
      "v": 54,
      "w": 55,
      "x": 56,
      "y": 57,
      "±": 58,
      "²": 59,
      "₁": 60,
      "₂": 61,
      "₆": 62,
      "→": 63,
      "√": 64,
      "≠": 65,
      "、": 66,
      "。": 67,
      "《": 68,
      "》": 69,
      "一": 70,
      "三": 71,
      "上": 72,
      "不": 73,
      "且": 74,
      "两": 75,
      "个": 76,
      "中": 77,
      "为": 78,
      "主": 79,
      "义": 80,
      "之": 81,
      "九": 82,
      "也": 83,
      "了": 84,
      "二": 85,
      "于": 86,
      "互": 87,
      "交": 88,
      "产": 89,
      "享": 90,
      "人": 91,
      "从": 92,
      "仙": 93,
      "代": 94,
      "任": 95,
      "会": 96,
      "伟": 97,
      "传": 98,
      "位": 99,
      "体": 100,
      "何": 101,
      "作": 102,
      "使": 103,
      "例": 104,
      "保": 105,
      "信": 106,
      "储": 107,
      "元": 108,
      "光": 109,
      "八": 110,
      "公": 111,
      "共": 112,
      "其": 113,
      "内": 114,
      "写": 115,
      "凭": 116,
      "出": 117,
      "函": 118,
      "分": 119,
      "列": 120,
      "则": 121,
      "初": 122,
      "利": 123,
      "别": 124,
      "到": 125,
      "前": 126,
      "力": 127,
      "功": 128,
      "动": 129,
      "勾": 130,
      "匀": 131,
      "化": 132,
      "十": 133,
      "单": 134,
      "历": 135,
      "压": 136,
      "原": 137,
      "又": 138,
      "反": 139,
      "发": 140,
      "变": 141,
      "另": 142,
      "只": 143,
      "史": 144,
      "叶": 145,
      "合": 146,
      "同": 147,
      "后": 148,
      "呤": 149,
      "周": 150,
      "和": 151,
      "唐": 152,
      "啶": 153,
      "嘌": 154,
      "嘧": 155,
      "四": 156,
      "国": 157,
      "在": 158,
      "基": 159,
      "境": 160,
      "外": 161,
      "夜": 162,
      "大": 163,
      "失": 164,
      "如": 165,
      "姆": 166,
      "子": 167,
      "存": 168,
      "学": 169,
      "它": 170,
      "守": 171,
      "定": 172,
      "容": 173,
      "对": 174,
      "导": 175,
      "将": 176,
      "小": 177,
      "尔": 178,
      "已": 179,
      "帝": 180,
      "常": 181,
      "平": 182,
      "年": 183,
      "并": 184,
      "序": 185,
      "应": 186,
      "度": 187,
      "异": 188,
      "式": 189,
      "强": 190,
      "录": 191,
      "形": 192,
      "律": 193,
      "心": 194,
      "念": 195,
      "态": 196,
      "思": 197,
      "性": 198,
      "总": 199,
      "恒": 200,
      "息": 201,
      "惯": 202,
      "成": 203,
      "或": 204,
      "所": 205,
      "择": 206,
      "持": 207,
      "指": 208,
      "按": 209,
      "换": 210,
      "排": 211,
      "收": 212,
      "改": 213,
      "放": 214,
      "数": 215,
      "文": 216,
      "斜": 217,
      "方": 218,
      "既": 219,
      "早": 220,
      "易": 221,
      "春": 222,
      "是": 223,
      "更": 224,
      "最": 225,
      "有": 226,
      "朝": 227,
      "期": 228,
      "本": 229,
      "机": 230,
      "李": 231,
      "构": 232,
      "某": 233,
      "核": 234,
      "植": 235,
      "概": 236,
      "次": 237,
      "欧": 238,
      "歌": 239,
      "止": 240,
      "正": 241,
      "殖": 242,
      "段": 243,
      "毒": 244,
      "比": 245,
      "气": 246,
      "氧": 247,
      "水": 248,
      "求": 249,
      "流": 250,
      "浪": 251,
      "消": 252,
      "漫": 253,
      "点": 254,
      "然": 255,
      "照": 256,
      "牛": 257,
      "物": 258,
      "状": 259,
      "率": 260,
      "环": 261,
      "现": 262,
      "理": 263,
      "生": 264,
      "用": 265,
      "由": 266,
      "电": 267,
      "病": 268,
      "白": 269,
      "百": 270,
      "的": 271,
      "盐": 272,
      "盛": 273,
      "目": 274,
      "直": 275,
      "相": 276,
      "碱": 277,
      "碳": 278,
      "示": 279,
      "秋": 280,
      "种": 281,
      "称": 282,
      "移": 283,
      "程": 284,
      "空": 285,
      "端": 286,
      "第": 287,
      "等": 288,
      "篇": 289,
      "糖": 290,
      "素": 291,
      "繁": 292,
      "线": 293,
      "组": 294,
      "细": 295,
      "经": 296,
      "结": 297,
      "绿": 298,
      "缩": 299,
      "者": 300,
      "而": 301,
      "股": 302,
      "胞": 303,
      "胸": 304,
      "能": 305,
      "脱": 306,
      "腺": 307,
      "自": 308,
      "至": 309,
      "般": 310,
      "色": 311,
      "若": 312,
      "行": 313,
      "表": 314,
      "被": 315,
      "西": 316,
      "要": 317,
      "角": 318,
      "解": 319,
      "誉": 320,
      "论": 321,
      "设": 322,
      "诗": 323,
      "跟": 324,
      "路": 325,
      "转": 326,
      "边": 327,
      "达": 328,
      "过": 329,
      "运": 330,
      "这": 331,
      "进": 332,
      "迫": 333,
      "适": 334,
      "选": 335,
      "通": 336,
      "速": 337,
      "遗": 338,
      "部": 339,
      "都": 340,
      "酒": 341,
      "酸": 342,
      "释": 343,
      "量": 344,
      "长": 345,
      "阻": 346,
      "除": 347,
      "雅": 348,
      "集": 349,
      "静": 350,
      "顿": 351,
      "颂": 352,
      "风": 353,
      "鸟": 354,
      "（": 355,
      "）": 356,
      "，": 357,
      "：": 358,
      "an": 359,
      "th": 360,
      "物体": 361,
      "is": 362,
      "定律": 363,
      "式为": 364,
      "直角": 365,
      "En": 366,
      "gl": 367,
      "st": 368,
      "the": 369,
      "Engl": 370,
      "元素": 371,
      "导体": 372,
      "段导体": 373,
      "的电": 374,
      "能量": 375,
      ")、": 376,
      "ag": 377,
      "ar": 378,
      "as": 379,
      "at": 380,
      "gu": 381,
      "in": 382,
      "ke": 383,
      "lan": 384,
      "po": 385,
      "ish": 386,
      "English": 387,
      "age": 388,
      "guage": 389,
      "language": 390,
      "Cl": 391,
      "Na": 392,
      "一个": 393,
      "一种": 394,
      "三角": 395,
      "不会": 396,
      "两直角": 397,
      "保持": 398,
      "公式为": 399,
      "凭空": 400,
      "函数": 401,
      "化为": 402,
      "化学": 403,
      "反应": 404,
      "和水": 405,
      "平方": 406,
      "形式": 407,
      "斜边": 408,
      "方程": 409,
      "是指": 410,
      "状态": 411,
      "的平方": 412,
      "跟这": 413,
      "转化为": 414,
      "运动": 415,
      "长度": 416,
      "直角三角": 417,
      "段导体的电": 418,
      "一个物体": 419,
      "一种形式": 420,
      "不会凭空": 421,
      "两直角边": 422,
      "直角三角形": 423,
      "ac": 424,
      "DN": 425,
      "de": 426,
      "er": 427,
      "est": 428,
      "ear": 429,
      "ir": 430,
      "ly": 431,
      "or": 432,
      "re": 433,
      "ri": 434,
      "spo": 435,
      "was": 436,
      "wri": 437,
      "中国": 438,
      "嘌呤": 439,
      "嘧啶": 440,
      "是生": 441,
      "是中国": 442,
      "环境": 443,
      "生物": 444,
      "的诗": 445,
      "组成": 446,
      "细胞": 447,
      "选择": 448,
      "and": 449,
      "ken": 450,
      "DNA": 451,
      "spoken": 452,
      "是生物体": 453,
      "的诗歌": 454,
      "'(": 455,
      "(-": 456,
      "))": 457,
      "11": 458,
      "2a": 459,
      "2x": 460,
      "4ac": 461,
      "6C": 462,
      "6H": 463,
      "6O": 464,
      "8种": 465,
      "HCl": 466,
      "OH": 467,
      "ax": 468,
      "a和": 469,
      "bx": 470,
      "c为": 471,
      "²。": 472,
      "²，": 473,
      "₁₂": 474,
      "₂。": 475,
      "√(": 476,
      "一元": 477,
      "一点": 478,
      "一电": 479,
      "一般": 480,
      "一定律": 481,
      "不变": 482,
      "且a": 483,
      "两端": 484,
      "中a": 485,
      "中和": 486,
      "为c": 487,
      "为止": 488,
      "为a和": 489,
      "也不会凭空": 490,
      "二次": 491,
      "二氧": 492,
      "于斜边": 493,
      "互相": 494,
      "交换": 495,
      "产生": 496,
      "从小": 497,
      "从一个物体": 498,
      "从一种形式": 499,
      "任何": 500,
      "会从一种形式": 501,
      "作用": 502,
      "使它": 503,
      "例如": 504,
      "光合": 505,
      "光能": 506,
      "其中a": 507,
      "分别": 508,
      "列的": 509,
      "列表": 510,
      "则f": 511,
      "则有": 512,
      "利用": 513,
      "到另": 514,
      "到外": 515,
      "到大": 516,
      "前已": 517,
      "力迫": 518,
      "勾股": 519,
      "匀速": 520,
      "化率": 521,
      "化碳": 522,
      "压成": 523,
      "原子": 524,
      "又称": 525,
      "反比": 526,
      "发现": 527,
      "变运动": 528,
      "变化率": 529,
      "另一种形式": 530,
      "只会从一种形式": 531,
      "同一电": 532,
      "周期": 533,
      "和碱": 534,
      "和等": 535,
      "在某": 536,
      "在同一电": 537,
      "姆定律": 538,
      "它只会从一种形式": 539,
      "守恒": 540,
      "定理": 541,
      "导数": 542,
      "将二氧": 543,
      "常数": 544,
      "并释": 545,
      "序数": 546,
      "形式为": 547,
      "性定律": 548,
      "总量": 549,
      "惯性定律": 550,
      "成分": 551,
      "成盐": 552,
      "成反比": 553,
      "或者": 554,
      "或静": 555,
      "指出": 556,
      "按照": 557,
      "排列的": 558,
      "改变运动": 559,
      "放氧": 560,
      "既不会凭空": 561,
      "是绿": 562,
      "是按照": 563,
      "有机": 564,
      "某段导体的电": 565,
      "植物": 566,
      "欧姆定律": 567,
      "止状态": 568,
      "正比": 569,
      "气的": 570,
      "求解": 571,
      "流跟这": 572,
      "消失": 573,
      "牛顿": 574,
      "物并释": 575,
      "生成盐": 576,
      "的反应": 577,
      "的两直角边": 578,
      "的一般": 579,
      "的变化率": 580,
      "的导数": 581,
      "的总量": 582,
      "目前已": 583,
      "直线": 584,
      "直到外": 585,
      "碱中和": 586,
      "示函数": 587,
      "移到另": 588,
      "第一定律": 589,
      "而能量": 590,
      "色植物": 591,
      "若f": 592,
      "表是按照": 593,
      "表示函数": 594,
      "要保持": 595,
      "设直角三角形": 596,
      "路中": 597,
      "转移到另": 598,
      "过程": 599,
      "过某段导体的电": 600,
      "通过某段导体的电": 601,
      "都要保持": 602,
      "酸和碱": 603,
      "酸碱中和": 604,
      "阻成反比": 605,
      "物体都要保持": 606,
      "元素列表": 607,
      "元素周期": 608,
      "段导体两端": 609,
      "的电压成": 610,
      "能量守恒": 611,
      "能量既不会凭空": 612,
      "NaCl": 613,
      "NaOH": 614,
      "保持不变": 615,
      "公式为I": 616,
      "公式为x": 617,
      "函数的导数": 618,
      "化学方程": 619,
      "化学元素列表": 620,
      "反应是指": 621,
      "和水转化为": 622,
      "和水的反应": 623,
      "斜边长度": 624,
      "方程的一般": 625,
      "是指直角三角形": 626,
      "状态为止": 627,
      "的平方和等": 628,
      "跟这段导体的电": 629,
      "转化为另一种形式": 630,
      "运动或静": 631,
      "长度分别": 632,
      "两直角边的平方和等": 633,
      "118种": 634,
      "6CO": 635,
      "c为常数": 636,
      "一元二次": 637,
      "一点的变化率": 638,
      "为a和b": 639,
      "也不会凭空消失": 640,
      "于斜边的平方": 641,
      "互相交换": 642,
      "从小到大": 643,
      "从一个物体转移到另": 644,
      "任何物体都要保持": 645,
      "作用是绿": 646,
      "使它改变运动": 647,
      "光合作用是绿": 648,
      "则有a": 649,
      "利用光能": 650,
      "力迫使它改变运动": 651,
      "勾股定理": 652,
      "匀速直线": 653,
      "化碳和水转化为": 654,
      "原子序数": 655,
      "又称惯性定律": 656,
      "发现118种": 657,
      "在某一点的变化率": 658,
      "在同一电路中": 659,
      "它只会从一种形式转化为另一种形式": 660,
      "将二氧化碳和水转化为": 661,
      "形式为ax": 662,
      "或者从一个物体转移到另": 663,
      "排列的化学元素列表": 664,
      "放氧气的": 665,
      "有机物并释": 666,
      "求解公式为x": 667,
      "流跟这段导体两端": 668,
      "牛顿第一定律": 669,
      "生成盐和水的反应": 670,
      "的两直角边长度分别": 671,
      "的总量保持不变": 672,
      "目前已发现118种": 673,
      "直到外力迫使它改变运动": 674,
      "而能量的总量保持不变": 675,
      "色植物利用光能": 676,
      "表是按照原子序数": 677,
      "表示函数在某一点的变化率": 678,
      "设直角三角形的两直角边长度分别": 679,
      "通过某段导体的电流跟这段导体两端": 680,
      "酸和碱互相交换": 681,
      "酸碱中和反应是指": 682,
      "元素周期表是按照原子序数": 683,
      "的电压成正比": 684,
      "能量守恒定律": 685,
      "能量既不会凭空产生": 686,
      "函数的导数表示函数在某一点的变化率": 687,
      "化学方程式为": 688,
      "斜边长度为c": 689,
      "方程的一般形式为ax": 690,
      "是指直角三角形两直角边的平方和等": 691,
      "跟这段导体的电阻成反比": 692,
      "运动或静止状态": 693,
      "一元二次方程的一般形式为ax": 694,
      "从小到大排列的化学元素列表": 695,
      "任何物体都要保持匀速直线": 696,
      "光合作用是绿色植物利用光能": 697,
      "勾股定理是指直角三角形两直角边的平方和等": 698,
      "将二氧化碳和水转化为有机物并释": 699,
      "或者从一个物体转移到另一个物体": 700,
      "放氧气的过程": 701,
      "目前已发现118种元素": 702,
      "直到外力迫使它改变运动状态为止": 703,
      "设直角三角形的两直角边长度分别为a和b": 704,
      "通过某段导体的电流跟这段导体两端的电压成正比": 705,
      "酸和碱互相交换成分": 706,
      "酸碱中和反应是指酸和碱互相交换成分": 707,
      "元素周期表是按照原子序数从小到大排列的化学元素列表": 708,
      "任何物体都要保持匀速直线运动或静止状态": 709,
      "勾股定理是指直角三角形两直角边的平方和等于斜边的平方": 710,
      "将二氧化碳和水转化为有机物并释放氧气的过程": 711,
      ")。": 712,
      "05": 713,
      "305": 714,
      "Ger": 715,
      "It": 716,
      "Sh": 717,
      "Wi": 718,
      "West": 719,
      "al": 720,
      "am": 721,
      "ay": 722,
      "ake": 723,
      "di": 724,
      "et": 725,
      "ev": 726,
      "edi": 727,
      "fir": 728,
      "gh": 729,
      "gar": 730,
      "gre": 731,
      "ic": 732,
      "iv": 733,
      "ide": 734,
      "iam": 735,
      "ld": 736,
      "ll": 737,
      "lay": 738,
      "mo": 739,
      "man": 740,
      "medi": 741,
      "nat": 742,
      "pear": 743,
      "play": 744,
      "spear": 745,
      "ter": 746,
      "tor": 747,
      "wor": 748,
      "wide": 749,
      "》《": 750,
      "一帝": 751,
      "三部": 752,
      "上最": 753,
      "个体": 754,
      "中叶": 755,
      "为诗": 756,
      "为风": 757,
      "主义": 758,
      "之一": 759,
      "九年": 760,
      "了西": 761,
      "二十": 762,
      "二百": 763,
      "享国": 764,
      "人誉": 765,
      "代伟": 766,
      "代表": 767,
      "代之一": 768,
      "传信": 769,
      "作有": 770,
      "储存": 771,
      "八十": 772,
      "共历": 773,
      "内储存": 774,
      "分子": 775,
      "分为风": 776,
      "初年": 777,
      "功能": 778,
      "化论": 779,
      "单位": 780,
      "历史": 781,
      "变异": 782,
      "后人誉": 783,
      "周初年": 784,
      "和繁": 785,
      "和功能": 786,
      "唐朝": 787,
      "唐代伟": 788,
      "四种": 789,
      "基本": 790,
      "基组成": 791,
      "夜思": 792,
      "大的": 793,
      "存和繁": 794,
      "容易": 795,
      "对生物": 796,
      "将进": 797,
      "尔文": 798,
      "应环境": 799,
      "强盛": 800,
      "录了西": 801,
      "心概": 802,
      "总集": 803,
      "息的": 804,
      "所有": 805,
      "指环境": 806,
      "收录了西": 807,
      "早的诗歌": 808,
      "春秋": 809,
      "是脱": 810,
      "是达": 811,
      "是唐代伟": 812,
      "更容易": 813,
      "最早的诗歌": 814,
      "朝代之一": 815,
      "李白": 816,
      "构和功能": 817,
      "核糖": 818,
      "核酸": 819,
      "核心概": 820,
      "毒除": 821,
      "氧核糖": 822,
      "浪漫": 823,
      "然选择": 824,
      "生存和繁": 825,
      "由细胞": 826,
      "由四种": 827,
      "病毒除": 828,
      "的缩": 829,
      "的个体": 830,
      "的基本": 831,
      "的朝代之一": 832,
      "的核心概": 833,
      "碱基组成": 834,
      "结构和功能": 835,
      "胞嘧啶": 836,
      "胸腺": 837,
      "腺嘌呤": 838,
      "自然选择": 839,
      "至春秋": 840,
      "行选择": 841,
      "被后人誉": 842,
      "诗人": 843,
      "诗经": 844,
      "进化论": 845,
      "进行选择": 846,
      "适应环境": 847,
      "遗传信": 848,
      "都由细胞": 849,
      "静夜思": 850,
      "颂三部": 851,
      "鸟嘌呤": 852,
      "）。": 853,
      "that": 854,
      "thir": 855,
      "England": 856,
      "atest": 857,
      "poet": 858,
      "actor": 859,
      "ded": 860,
      "early": 861,
      "regar": 862,
      "wrigh": 863,
      "writer": 864,
      "是中国历史": 865,
      "是中国最早的诗歌": 866,
      "生物都由细胞": 867,
      "细胞是生物体": 868,
      "DNA是脱": 869,
      "DNA由四种": 870,
      "是生物体内储存": 871,
      "的诗歌305": 872,
      "German": 873,
      "Shake": 874,
      "Will": 875,
      "eval": 876,
      "first": 877,
      "greatest": 878,
      "ive": 879,
      "most": 880,
      "medieval": 881,
      "native": 882,
      "playwrigh": 883,
      "speare": 884,
      "world": 885,
      "widely": 886,
      "上最强盛": 887,
      "中叶的诗歌305": 888,
      "为诗仙": 889,
      "主义诗人": 890,
      "二十一帝": 891,
      "二百八十": 892,
      "享国二百八十": 893,
      "代表作有": 894,
      "共历二十一帝": 895,
      "变异进行选择": 896,
      "周初年至春秋": 897,
      "唐朝是中国历史": 898,
      "大的浪漫": 899,
      "对生物变异进行选择": 900,
      "将进酒": 901,
      "尔文进化论": 902,
      "息的分子": 903,
      "所有生物都由细胞": 904,
      "指环境对生物变异进行选择": 905,
      "收录了西周初年至春秋": 906,
      "是达尔文进化论": 907,
      "是唐代伟大的浪漫": 908,
      "更容易生存和繁": 909,
      "李白是唐代伟大的浪漫": 910,
      "核酸的缩": 911,
      "氧核糖核酸的缩": 912,
      "病毒除外": 913,
      "的个体更容易生存和繁": 914,
      "的基本单位": 915,
      "的核心概念": 916,
      "结构和功能的基本单位": 917,
      "胸腺嘧啶": 918,
      "自然选择是达尔文进化论": 919,
      "被后人誉为诗仙": 920,
      "适应环境的个体更容易生存和繁": 921,
      "遗传信息的分子": 922,
      "颂三部分": 923,
      "third": 924,
      "regarded": 925,
      "是中国最早的诗歌总集": 926,
      "细胞是生物体结构和功能的基本单位": 927,
      "DNA是脱氧核糖核酸的缩": 928,
      "DNA由四种碱基组成": 929,
      "是生物体内储存遗传信息的分子": 930,
      "Germanic": 931,
      "Shakespeare": 932,
      "William": 933,
      "playwright": 934,
      "上最强盛的朝代之一": 935,
      "中叶的诗歌305篇": 936,
      "享国二百八十九年": 937,
      "唐朝是中国历史上最强盛的朝代之一": 938,
      "所有生物都由细胞组成": 939,
      "收录了西周初年至春秋中叶的诗歌305篇": 940,
      "李白是唐代伟大的浪漫主义诗人": 941,
      "自然选择是达尔文进化论的核心概念": 942,
      "适应环境的个体更容易生存和繁殖": 943,
      "DNA是脱氧核糖核酸的缩写": 944
    },
    "merges": [
      [
        "a",
        "n"
      ],
      [
        "t",
        "h"
      ],
      [
        "物",
        "体"
      ],
      [
        "i",
        "s"
      ],
      [
        "定",
        "律"
      ],
      [
        "式",
        "为"
      ],
      [
        "直",
        "角"
      ],
      [
        "E",
        "n"
      ],
      [
        "g",
        "l"
      ],
      [
        "s",
        "t"
      ],
      [
        "th",
        "e"
      ],
      [
        "En",
        "gl"
      ],
      [
        "元",
        "素"
      ],
      [
        "导",
        "体"
      ],
      [
        "段",
        "导体"
      ],
      [
        "的",
        "电"
      ],
      [
        "能",
        "量"
      ],
      [
        ")",
        "、"
      ],
      [
        "a",
        "g"
      ],
      [
        "a",
        "r"
      ],
      [
        "a",
        "s"
      ],
      [
        "a",
        "t"
      ],
      [
        "g",
        "u"
      ],
      [
        "i",
        "n"
      ],
      [
        "k",
        "e"
      ],
      [
        "l",
        "an"
      ],
      [
        "p",
        "o"
      ],
      [
        "is",
        "h"
      ],
      [
        "Engl",
        "ish"
      ],
      [
        "ag",
        "e"
      ],
      [
        "gu",
        "age"
      ],
      [
        "lan",
        "guage"
      ],
      [
        "C",
        "l"
      ],
      [
        "N",
        "a"
      ],
      [
        "一",
        "个"
      ],
      [
        "一",
        "种"
      ],
      [
        "三",
        "角"
      ],
      [
        "不",
        "会"
      ],
      [
        "两",
        "直角"
      ],
      [
        "保",
        "持"
      ],
      [
        "公",
        "式为"
      ],
      [
        "凭",
        "空"
      ],
      [
        "函",
        "数"
      ],
      [
        "化",
        "为"
      ],
      [
        "化",
        "学"
      ],
      [
        "反",
        "应"
      ],
      [
        "和",
        "水"
      ],
      [
        "平",
        "方"
      ],
      [
        "形",
        "式"
      ],
      [
        "斜",
        "边"
      ],
      [
        "方",
        "程"
      ],
      [
        "是",
        "指"
      ],
      [
        "状",
        "态"
      ],
      [
        "的",
        "平方"
      ],
      [
        "跟",
        "这"
      ],
      [
        "转",
        "化为"
      ],
      [
        "运",
        "动"
      ],
      [
        "长",
        "度"
      ],
      [
        "直角",
        "三角"
      ],
      [
        "段导体",
        "的电"
      ],
      [
        "一个",
        "物体"
      ],
      [
        "一种",
        "形式"
      ],
      [
        "不会",
        "凭空"
      ],
      [
        "两直角",
        "边"
      ],
      [
        "直角三角",
        "形"
      ],
      [
        "a",
        "c"
      ],
      [
        "D",
        "N"
      ],
      [
        "d",
        "e"
      ],
      [
        "e",
        "r"
      ],
      [
        "e",
        "st"
      ],
      [
        "e",
        "ar"
      ],
      [
        "i",
        "r"
      ],
      [
        "l",
        "y"
      ],
      [
        "o",
        "r"
      ],
      [
        "r",
        "e"
      ],
      [
        "r",
        "i"
      ],
      [
        "s",
        "po"
      ],
      [
        "w",
        "as"
      ],
      [
        "w",
        "ri"
      ],
      [
        "中",
        "国"
      ],
      [
        "嘌",
        "呤"
      ],
      [
        "嘧",
        "啶"
      ],
      [
        "是",
        "生"
      ],
      [
        "是",
        "中国"
      ],
      [
        "环",
        "境"
      ],
      [
        "生",
        "物"
      ],
      [
        "的",
        "诗"
      ],
      [
        "组",
        "成"
      ],
      [
        "细",
        "胞"
      ],
      [
        "选",
        "择"
      ],
      [
        "an",
        "d"
      ],
      [
        "ke",
        "n"
      ],
      [
        "DN",
        "A"
      ],
      [
        "spo",
        "ken"
      ],
      [
        "是生",
        "物体"
      ],
      [
        "的诗",
        "歌"
      ],
      [
        "'",
        "("
      ],
      [
        "(",
        "-"
      ],
      [
        ")",
        ")"
      ],
      [
        "1",
        "1"
      ],
      [
        "2",
        "a"
      ],
      [
        "2",
        "x"
      ],
      [
        "4",
        "ac"
      ],
      [
        "6",
        "C"
      ],
      [
        "6",
        "H"
      ],
      [
        "6",
        "O"
      ],
      [
        "8",
        "种"
      ],
      [
        "H",
        "Cl"
      ],
      [
        "O",
        "H"
      ],
      [
        "a",
        "x"
      ],
      [
        "a",
        "和"
      ],
      [
        "b",
        "x"
      ],
      [
        "c",
        "为"
      ],
      [
        "²",
        "。"
      ],
      [
        "²",
        "，"
      ],
      [
        "₁",
        "₂"
      ],
      [
        "₂",
        "。"
      ],
      [
        "√",
        "("
      ],
      [
        "一",
        "元"
      ],
      [
        "一",
        "点"
      ],
      [
        "一",
        "电"
      ],
      [
        "一",
        "般"
      ],
      [
        "一",
        "定律"
      ],
      [
        "不",
        "变"
      ],
      [
        "且",
        "a"
      ],
      [
        "两",
        "端"
      ],
      [
        "中",
        "a"
      ],
      [
        "中",
        "和"
      ],
      [
        "为",
        "c"
      ],
      [
        "为",
        "止"
      ],
      [
        "为",
        "a和"
      ],
      [
        "也",
        "不会凭空"
      ],
      [
        "二",
        "次"
      ],
      [
        "二",
        "氧"
      ],
      [
        "于",
        "斜边"
      ],
      [
        "互",
        "相"
      ],
      [
        "交",
        "换"
      ],
      [
        "产",
        "生"
      ],
      [
        "从",
        "小"
      ],
      [
        "从",
        "一个物体"
      ],
      [
        "从",
        "一种形式"
      ],
      [
        "任",
        "何"
      ],
      [
        "会",
        "从一种形式"
      ],
      [
        "作",
        "用"
      ],
      [
        "使",
        "它"
      ],
      [
        "例",
        "如"
      ],
      [
        "光",
        "合"
      ],
      [
        "光",
        "能"
      ],
      [
        "其",
        "中a"
      ],
      [
        "分",
        "别"
      ],
      [
        "列",
        "的"
      ],
      [
        "列",
        "表"
      ],
      [
        "则",
        "f"
      ],
      [
        "则",
        "有"
      ],
      [
        "利",
        "用"
      ],
      [
        "到",
        "另"
      ],
      [
        "到",
        "外"
      ],
      [
        "到",
        "大"
      ],
      [
        "前",
        "已"
      ],
      [
        "力",
        "迫"
      ],
      [
        "勾",
        "股"
      ],
      [
        "匀",
        "速"
      ],
      [
        "化",
        "率"
      ],
      [
        "化",
        "碳"
      ],
      [
        "压",
        "成"
      ],
      [
        "原",
        "子"
      ],
      [
        "又",
        "称"
      ],
      [
        "反",
        "比"
      ],
      [
        "发",
        "现"
      ],
      [
        "变",
        "运动"
      ],
      [
        "变",
        "化率"
      ],
      [
        "另",
        "一种形式"
      ],
      [
        "只",
        "会从一种形式"
      ],
      [
        "同",
        "一电"
      ],
      [
        "周",
        "期"
      ],
      [
        "和",
        "碱"
      ],
      [
        "和",
        "等"
      ],
      [
        "在",
        "某"
      ],
      [
        "在",
        "同一电"
      ],
      [
        "姆",
        "定律"
      ],
      [
        "它",
        "只会从一种形式"
      ],
      [
        "守",
        "恒"
      ],
      [
        "定",
        "理"
      ],
      [
        "导",
        "数"
      ],
      [
        "将",
        "二氧"
      ],
      [
        "常",
        "数"
      ],
      [
        "并",
        "释"
      ],
      [
        "序",
        "数"
      ],
      [
        "形",
        "式为"
      ],
      [
        "性",
        "定律"
      ],
      [
        "总",
        "量"
      ],
      [
        "惯",
        "性定律"
      ],
      [
        "成",
        "分"
      ],
      [
        "成",
        "盐"
      ],
      [
        "成",
        "反比"
      ],
      [
        "或",
        "者"
      ],
      [
        "或",
        "静"
      ],
      [
        "指",
        "出"
      ],
      [
        "按",
        "照"
      ],
      [
        "排",
        "列的"
      ],
      [
        "改",
        "变运动"
      ],
      [
        "放",
        "氧"
      ],
      [
        "既",
        "不会凭空"
      ],
      [
        "是",
        "绿"
      ],
      [
        "是",
        "按照"
      ],
      [
        "有",
        "机"
      ],
      [
        "某",
        "段导体的电"
      ],
      [
        "植",
        "物"
      ],
      [
        "欧",
        "姆定律"
      ],
      [
        "止",
        "状态"
      ],
      [
        "正",
        "比"
      ],
      [
        "气",
        "的"
      ],
      [
        "求",
        "解"
      ],
      [
        "流",
        "跟这"
      ],
      [
        "消",
        "失"
      ],
      [
        "牛",
        "顿"
      ],
      [
        "物",
        "并释"
      ],
      [
        "生",
        "成盐"
      ],
      [
        "的",
        "反应"
      ],
      [
        "的",
        "两直角边"
      ],
      [
        "的",
        "一般"
      ],
      [
        "的",
        "变化率"
      ],
      [
        "的",
        "导数"
      ],
      [
        "的",
        "总量"
      ],
      [
        "目",
        "前已"
      ],
      [
        "直",
        "线"
      ],
      [
        "直",
        "到外"
      ],
      [
        "碱",
        "中和"
      ],
      [
        "示",
        "函数"
      ],
      [
        "移",
        "到另"
      ],
      [
        "第",
        "一定律"
      ],
      [
        "而",
        "能量"
      ],
      [
        "色",
        "植物"
      ],
      [
        "若",
        "f"
      ],
      [
        "表",
        "是按照"
      ],
      [
        "表",
        "示函数"
      ],
      [
        "要",
        "保持"
      ],
      [
        "设",
        "直角三角形"
      ],
      [
        "路",
        "中"
      ],
      [
        "转",
        "移到另"
      ],
      [
        "过",
        "程"
      ],
      [
        "过",
        "某段导体的电"
      ],
      [
        "通",
        "过某段导体的电"
      ],
      [
        "都",
        "要保持"
      ],
      [
        "酸",
        "和碱"
      ],
      [
        "酸",
        "碱中和"
      ],
      [
        "阻",
        "成反比"
      ],
      [
        "物体",
        "都要保持"
      ],
      [
        "元素",
        "列表"
      ],
      [
        "元素",
        "周期"
      ],
      [
        "段导体",
        "两端"
      ],
      [
        "的电",
        "压成"
      ],
      [
        "能量",
        "守恒"
      ],
      [
        "能量",
        "既不会凭空"
      ],
      [
        "Na",
        "Cl"
      ],
      [
        "Na",
        "OH"
      ],
      [
        "保持",
        "不变"
      ],
      [
        "公式为",
        "I"
      ],
      [
        "公式为",
        "x"
      ],
      [
        "函数",
        "的导数"
      ],
      [
        "化学",
        "方程"
      ],
      [
        "化学",
        "元素列表"
      ],
      [
        "反应",
        "是指"
      ],
      [
        "和水",
        "转化为"
      ],
      [
        "和水",
        "的反应"
      ],
      [
        "斜边",
        "长度"
      ],
      [
        "方程",
        "的一般"
      ],
      [
        "是指",
        "直角三角形"
      ],
      [
        "状态",
        "为止"
      ],
      [
        "的平方",
        "和等"
      ],
      [
        "跟这",
        "段导体的电"
      ],
      [
        "转化为",
        "另一种形式"
      ],
      [
        "运动",
        "或静"
      ],
      [
        "长度",
        "分别"
      ],
      [
        "两直角边",
        "的平方和等"
      ],
      [
        "11",
        "8种"
      ],
      [
        "6C",
        "O"
      ],
      [
        "c为",
        "常数"
      ],
      [
        "一元",
        "二次"
      ],
      [
        "一点",
        "的变化率"
      ],
      [
        "为a和",
        "b"
      ],
      [
        "也不会凭空",
        "消失"
      ],
      [
        "于斜边",
        "的平方"
      ],
      [
        "互相",
        "交换"
      ],
      [
        "从小",
        "到大"
      ],
      [
        "从一个物体",
        "转移到另"
      ],
      [
        "任何",
        "物体都要保持"
      ],
      [
        "作用",
        "是绿"
      ],
      [
        "使它",
        "改变运动"
      ],
      [
        "光合",
        "作用是绿"
      ],
      [
        "则有",
        "a"
      ],
      [
        "利用",
        "光能"
      ],
      [
        "力迫",
        "使它改变运动"
      ],
      [
        "勾股",
        "定理"
      ],
      [
        "匀速",
        "直线"
      ],
      [
        "化碳",
        "和水转化为"
      ],
      [
        "原子",
        "序数"
      ],
      [
        "又称",
        "惯性定律"
      ],
      [
        "发现",
        "118种"
      ],
      [
        "在某",
        "一点的变化率"
      ],
      [
        "在同一电",
        "路中"
      ],
      [
        "它只会从一种形式",
        "转化为另一种形式"
      ],
      [
        "将二氧",
        "化碳和水转化为"
      ],
      [
        "形式为",
        "ax"
      ],
      [
        "或者",
        "从一个物体转移到另"
      ],
      [
        "排列的",
        "化学元素列表"
      ],
      [
        "放氧",
        "气的"
      ],
      [
        "有机",
        "物并释"
      ],
      [
        "求解",
        "公式为x"
      ],
      [
        "流跟这",
        "段导体两端"
      ],
      [
        "牛顿",
        "第一定律"
      ],
      [
        "生成盐",
        "和水的反应"
      ],
      [
        "的两直角边",
        "长度分别"
      ],
      [
        "的总量",
        "保持不变"
      ],
      [
        "目前已",
        "发现118种"
      ],
      [
        "直到外",
        "力迫使它改变运动"
      ],
      [
        "而能量",
        "的总量保持不变"
      ],
      [
        "色植物",
        "利用光能"
      ],
      [
        "表是按照",
        "原子序数"
      ],
      [
        "表示函数",
        "在某一点的变化率"
      ],
      [
        "设直角三角形",
        "的两直角边长度分别"
      ],
      [
        "通过某段导体的电",
        "流跟这段导体两端"
      ],
      [
        "酸和碱",
        "互相交换"
      ],
      [
        "酸碱中和",
        "反应是指"
      ],
      [
        "元素周期",
        "表是按照原子序数"
      ],
      [
        "的电压成",
        "正比"
      ],
      [
        "能量守恒",
        "定律"
      ],
      [
        "能量既不会凭空",
        "产生"
      ],
      [
        "函数的导数",
        "表示函数在某一点的变化率"
      ],
      [
        "化学方程",
        "式为"
      ],
      [
        "斜边长度",
        "为c"
      ],
      [
        "方程的一般",
        "形式为ax"
      ],
      [
        "是指直角三角形",
        "两直角边的平方和等"
      ],
      [
        "跟这段导体的电",
        "阻成反比"
      ],
      [
        "运动或静",
        "止状态"
      ],
      [
        "一元二次",
        "方程的一般形式为ax"
      ],
      [
        "从小到大",
        "排列的化学元素列表"
      ],
      [
        "任何物体都要保持",
        "匀速直线"
      ],
      [
        "光合作用是绿",
        "色植物利用光能"
      ],
      [
        "勾股定理",
        "是指直角三角形两直角边的平方和等"
      ],
      [
        "将二氧化碳和水转化为",
        "有机物并释"
      ],
      [
        "或者从一个物体转移到另",
        "一个物体"
      ],
      [
        "放氧气的",
        "过程"
      ],
      [
        "目前已发现118种",
        "元素"
      ],
      [
        "直到外力迫使它改变运动",
        "状态为止"
      ],
      [
        "设直角三角形的两直角边长度分别",
        "为a和b"
      ],
      [
        "通过某段导体的电流跟这段导体两端",
        "的电压成正比"
      ],
      [
        "酸和碱互相交换",
        "成分"
      ],
      [
        "酸碱中和反应是指",
        "酸和碱互相交换成分"
      ],
      [
        "元素周期表是按照原子序数",
        "从小到大排列的化学元素列表"
      ],
      [
        "任何物体都要保持匀速直线",
        "运动或静止状态"
      ],
      [
        "勾股定理是指直角三角形两直角边的平方和等",
        "于斜边的平方"
      ],
      [
        "将二氧化碳和水转化为有机物并释",
        "放氧气的过程"
      ],
      [
        ")",
        "。"
      ],
      [
        "0",
        "5"
      ],
      [
        "3",
        "05"
      ],
      [
        "G",
        "er"
      ],
      [
        "I",
        "t"
      ],
      [
        "S",
        "h"
      ],
      [
        "W",
        "i"
      ],
      [
        "W",
        "est"
      ],
      [
        "a",
        "l"
      ],
      [
        "a",
        "m"
      ],
      [
        "a",
        "y"
      ],
      [
        "a",
        "ke"
      ],
      [
        "d",
        "i"
      ],
      [
        "e",
        "t"
      ],
      [
        "e",
        "v"
      ],
      [
        "e",
        "di"
      ],
      [
        "f",
        "ir"
      ],
      [
        "g",
        "h"
      ],
      [
        "g",
        "ar"
      ],
      [
        "g",
        "re"
      ],
      [
        "i",
        "c"
      ],
      [
        "i",
        "v"
      ],
      [
        "i",
        "de"
      ],
      [
        "i",
        "am"
      ],
      [
        "l",
        "d"
      ],
      [
        "l",
        "l"
      ],
      [
        "l",
        "ay"
      ],
      [
        "m",
        "o"
      ],
      [
        "m",
        "an"
      ],
      [
        "m",
        "edi"
      ],
      [
        "n",
        "at"
      ],
      [
        "p",
        "ear"
      ],
      [
        "p",
        "lay"
      ],
      [
        "s",
        "pear"
      ],
      [
        "t",
        "er"
      ],
      [
        "t",
        "or"
      ],
      [
        "w",
        "or"
      ],
      [
        "w",
        "ide"
      ],
      [
        "》",
        "《"
      ],
      [
        "一",
        "帝"
      ],
      [
        "三",
        "部"
      ],
      [
        "上",
        "最"
      ],
      [
        "个",
        "体"
      ],
      [
        "中",
        "叶"
      ],
      [
        "为",
        "诗"
      ],
      [
        "为",
        "风"
      ],
      [
        "主",
        "义"
      ],
      [
        "之",
        "一"
      ],
      [
        "九",
        "年"
      ],
      [
        "了",
        "西"
      ],
      [
        "二",
        "十"
      ],
      [
        "二",
        "百"
      ],
      [
        "享",
        "国"
      ],
      [
        "人",
        "誉"
      ],
      [
        "代",
        "伟"
      ],
      [
        "代",
        "表"
      ],
      [
        "代",
        "之一"
      ],
      [
        "传",
        "信"
      ],
      [
        "作",
        "有"
      ],
      [
        "储",
        "存"
      ],
      [
        "八",
        "十"
      ],
      [
        "共",
        "历"
      ],
      [
        "内",
        "储存"
      ],
      [
        "分",
        "子"
      ],
      [
        "分",
        "为风"
      ],
      [
        "初",
        "年"
      ],
      [
        "功",
        "能"
      ],
      [
        "化",
        "论"
      ],
      [
        "单",
        "位"
      ],
      [
        "历",
        "史"
      ],
      [
        "变",
        "异"
      ],
      [
        "后",
        "人誉"
      ],
      [
        "周",
        "初年"
      ],
      [
        "和",
        "繁"
      ],
      [
        "和",
        "功能"
      ],
      [
        "唐",
        "朝"
      ],
      [
        "唐",
        "代伟"
      ],
      [
        "四",
        "种"
      ],
      [
        "基",
        "本"
      ],
      [
        "基",
        "组成"
      ],
      [
        "夜",
        "思"
      ],
      [
        "大",
        "的"
      ],
      [
        "存",
        "和繁"
      ],
      [
        "容",
        "易"
      ],
      [
        "对",
        "生物"
      ],
      [
        "将",
        "进"
      ],
      [
        "尔",
        "文"
      ],
      [
        "应",
        "环境"
      ],
      [
        "强",
        "盛"
      ],
      [
        "录",
        "了西"
      ],
      [
        "心",
        "概"
      ],
      [
        "总",
        "集"
      ],
      [
        "息",
        "的"
      ],
      [
        "所",
        "有"
      ],
      [
        "指",
        "环境"
      ],
      [
        "收",
        "录了西"
      ],
      [
        "早",
        "的诗歌"
      ],
      [
        "春",
        "秋"
      ],
      [
        "是",
        "脱"
      ],
      [
        "是",
        "达"
      ],
      [
        "是",
        "唐代伟"
      ],
      [
        "更",
        "容易"
      ],
      [
        "最",
        "早的诗歌"
      ],
      [
        "朝",
        "代之一"
      ],
      [
        "李",
        "白"
      ],
      [
        "构",
        "和功能"
      ],
      [
        "核",
        "糖"
      ],
      [
        "核",
        "酸"
      ],
      [
        "核",
        "心概"
      ],
      [
        "毒",
        "除"
      ],
      [
        "氧",
        "核糖"
      ],
      [
        "浪",
        "漫"
      ],
      [
        "然",
        "选择"
      ],
      [
        "生",
        "存和繁"
      ],
      [
        "由",
        "细胞"
      ],
      [
        "由",
        "四种"
      ],
      [
        "病",
        "毒除"
      ],
      [
        "的",
        "缩"
      ],
      [
        "的",
        "个体"
      ],
      [
        "的",
        "基本"
      ],
      [
        "的",
        "朝代之一"
      ],
      [
        "的",
        "核心概"
      ],
      [
        "碱",
        "基组成"
      ],
      [
        "结",
        "构和功能"
      ],
      [
        "胞",
        "嘧啶"
      ],
      [
        "胸",
        "腺"
      ],
      [
        "腺",
        "嘌呤"
      ],
      [
        "自",
        "然选择"
      ],
      [
        "至",
        "春秋"
      ],
      [
        "行",
        "选择"
      ],
      [
        "被",
        "后人誉"
      ],
      [
        "诗",
        "人"
      ],
      [
        "诗",
        "经"
      ],
      [
        "进",
        "化论"
      ],
      [
        "进",
        "行选择"
      ],
      [
        "适",
        "应环境"
      ],
      [
        "遗",
        "传信"
      ],
      [
        "都",
        "由细胞"
      ],
      [
        "静",
        "夜思"
      ],
      [
        "颂",
        "三部"
      ],
      [
        "鸟",
        "嘌呤"
      ],
      [
        "）",
        "。"
      ],
      [
        "th",
        "at"
      ],
      [
        "th",
        "ir"
      ],
      [
        "Engl",
        "and"
      ],
      [
        "at",
        "est"
      ],
      [
        "po",
        "et"
      ],
      [
        "ac",
        "tor"
      ],
      [
        "de",
        "d"
      ],
      [
        "ear",
        "ly"
      ],
      [
        "re",
        "gar"
      ],
      [
        "wri",
        "gh"
      ],
      [
        "wri",
        "ter"
      ],
      [
        "是中国",
        "历史"
      ],
      [
        "是中国",
        "最早的诗歌"
      ],
      [
        "生物",
        "都由细胞"
      ],
      [
        "细胞",
        "是生物体"
      ],
      [
        "DNA",
        "是脱"
      ],
      [
        "DNA",
        "由四种"
      ],
      [
        "是生物体",
        "内储存"
      ],
      [
        "的诗歌",
        "305"
      ],
      [
        "Ger",
        "man"
      ],
      [
        "Sh",
        "ake"
      ],
      [
        "Wi",
        "ll"
      ],
      [
        "ev",
        "al"
      ],
      [
        "fir",
        "st"
      ],
      [
        "gre",
        "atest"
      ],
      [
        "iv",
        "e"
      ],
      [
        "mo",
        "st"
      ],
      [
        "medi",
        "eval"
      ],
      [
        "nat",
        "ive"
      ],
      [
        "play",
        "wrigh"
      ],
      [
        "spear",
        "e"
      ],
      [
        "wor",
        "ld"
      ],
      [
        "wide",
        "ly"
      ],
      [
        "上最",
        "强盛"
      ],
      [
        "中叶",
        "的诗歌305"
      ],
      [
        "为诗",
        "仙"
      ],
      [
        "主义",
        "诗人"
      ],
      [
        "二十",
        "一帝"
      ],
      [
        "二百",
        "八十"
      ],
      [
        "享国",
        "二百八十"
      ],
      [
        "代表",
        "作有"
      ],
      [
        "共历",
        "二十一帝"
      ],
      [
        "变异",
        "进行选择"
      ],
      [
        "周初年",
        "至春秋"
      ],
      [
        "唐朝",
        "是中国历史"
      ],
      [
        "大的",
        "浪漫"
      ],
      [
        "对生物",
        "变异进行选择"
      ],
      [
        "将进",
        "酒"
      ],
      [
        "尔文",
        "进化论"
      ],
      [
        "息的",
        "分子"
      ],
      [
        "所有",
        "生物都由细胞"
      ],
      [
        "指环境",
        "对生物变异进行选择"
      ],
      [
        "收录了西",
        "周初年至春秋"
      ],
      [
        "是达",
        "尔文进化论"
      ],
      [
        "是唐代伟",
        "大的浪漫"
      ],
      [
        "更容易",
        "生存和繁"
      ],
      [
        "李白",
        "是唐代伟大的浪漫"
      ],
      [
        "核酸",
        "的缩"
      ],
      [
        "氧核糖",
        "核酸的缩"
      ],
      [
        "病毒除",
        "外"
      ],
      [
        "的个体",
        "更容易生存和繁"
      ],
      [
        "的基本",
        "单位"
      ],
      [
        "的核心概",
        "念"
      ],
      [
        "结构和功能",
        "的基本单位"
      ],
      [
        "胸腺",
        "嘧啶"
      ],
      [
        "自然选择",
        "是达尔文进化论"
      ],
      [
        "被后人誉",
        "为诗仙"
      ],
      [
        "适应环境",
        "的个体更容易生存和繁"
      ],
      [
        "遗传信",
        "息的分子"
      ],
      [
        "颂三部",
        "分"
      ],
      [
        "thir",
        "d"
      ],
      [
        "regar",
        "ded"
      ],
      [
        "是中国最早的诗歌",
        "总集"
      ],
      [
        "细胞是生物体",
        "结构和功能的基本单位"
      ],
      [
        "DNA是脱",
        "氧核糖核酸的缩"
      ],
      [
        "DNA由四种",
        "碱基组成"
      ],
      [
        "是生物体内储存",
        "遗传信息的分子"
      ],
      [
        "German",
        "ic"
      ],
      [
        "Shake",
        "speare"
      ],
      [
        "Will",
        "iam"
      ],
      [
        "playwrigh",
        "t"
      ],
      [
        "上最强盛",
        "的朝代之一"
      ],
      [
        "中叶的诗歌305",
        "篇"
      ],
      [
        "享国二百八十",
        "九年"
      ],
      [
        "唐朝是中国历史",
        "上最强盛的朝代之一"
      ],
      [
        "所有生物都由细胞",
        "组成"
      ],
      [
        "收录了西周初年至春秋",
        "中叶的诗歌305篇"
      ],
      [
        "李白是唐代伟大的浪漫",
        "主义诗人"
      ],
      [
        "自然选择是达尔文进化论",
        "的核心概念"
      ],
      [
        "适应环境的个体更容易生存和繁",
        "殖"
      ],
      [
        "DNA是脱氧核糖核酸的缩",
        "写"
      ]
    ]
  }
}